#include "Dense_7IN_32H1_32H2_1OUT_0_model.h"

alignas(16) const unsigned char Dense_7IN_32H1_32H2_1OUT_0_model_array[] = {
  0x1c, 0x00, 0x00, 0x00, 0x54, 0x46, 0x4c, 0x33, 0x14, 0x00, 0x20, 0x00,
  0x1c, 0x00, 0x18, 0x00, 0x14, 0x00, 0x10, 0x00, 0x0c, 0x00, 0x00, 0x00,
  0x08, 0x00, 0x04, 0x00, 0x14, 0x00, 0x00, 0x00, 0x1c, 0x00, 0x00, 0x00,
  0x84, 0x00, 0x00, 0x00, 0xb4, 0x00, 0x00, 0x00, 0x78, 0x16, 0x00, 0x00,
  0x88, 0x16, 0x00, 0x00, 0xcc, 0x1b, 0x00, 0x00, 0x03, 0x00, 0x00, 0x00,
  0x01, 0x00, 0x00, 0x00, 0x04, 0x00, 0x00, 0x00, 0xb6, 0xe8, 0xff, 0xff,
  0x0c, 0x00, 0x00, 0x00, 0x1c, 0x00, 0x00, 0x00, 0x3c, 0x00, 0x00, 0x00,
  0x0f, 0x00, 0x00, 0x00, 0x73, 0x65, 0x72, 0x76, 0x69, 0x6e, 0x67, 0x5f,
  0x64, 0x65, 0x66, 0x61, 0x75, 0x6c, 0x74, 0x00, 0x01, 0x00, 0x00, 0x00,
  0x04, 0x00, 0x00, 0x00, 0xc0, 0xff, 0xff, 0xff, 0x0b, 0x00, 0x00, 0x00,
  0x04, 0x00, 0x00, 0x00, 0x08, 0x00, 0x00, 0x00, 0x6c, 0x61, 0x79, 0x65,
  0x72, 0x73, 0x5f, 0x32, 0x00, 0x00, 0x00, 0x00, 0x01, 0x00, 0x00, 0x00,
  0x04, 0x00, 0x00, 0x00, 0x0e, 0xea, 0xff, 0xff, 0x04, 0x00, 0x00, 0x00,
  0x07, 0x00, 0x00, 0x00, 0x69, 0x6e, 0x70, 0x75, 0x74, 0x5f, 0x31, 0x00,
  0x01, 0x00, 0x00, 0x00, 0x0c, 0x00, 0x00, 0x00, 0x08, 0x00, 0x0c, 0x00,
  0x08, 0x00, 0x04, 0x00, 0x08, 0x00, 0x00, 0x00, 0x0d, 0x00, 0x00, 0x00,
  0x04, 0x00, 0x00, 0x00, 0x13, 0x00, 0x00, 0x00, 0x6d, 0x69, 0x6e, 0x5f,
  0x72, 0x75, 0x6e, 0x74, 0x69, 0x6d, 0x65, 0x5f, 0x76, 0x65, 0x72, 0x73,
  0x69, 0x6f, 0x6e, 0x00, 0x0e, 0x00, 0x00, 0x00, 0xc0, 0x15, 0x00, 0x00,
  0xb8, 0x15, 0x00, 0x00, 0xa4, 0x15, 0x00, 0x00, 0x0c, 0x15, 0x00, 0x00,
  0x7c, 0x14, 0x00, 0x00, 0xec, 0x10, 0x00, 0x00, 0xdc, 0x00, 0x00, 0x00,
  0x4c, 0x00, 0x00, 0x00, 0x44, 0x00, 0x00, 0x00, 0x3c, 0x00, 0x00, 0x00,
  0x34, 0x00, 0x00, 0x00, 0x2c, 0x00, 0x00, 0x00, 0x24, 0x00, 0x00, 0x00,
  0x04, 0x00, 0x00, 0x00, 0x92, 0xea, 0xff, 0xff, 0x04, 0x00, 0x00, 0x00,
  0x10, 0x00, 0x00, 0x00, 0x31, 0x2e, 0x31, 0x34, 0x2e, 0x30, 0x00, 0x00,
  0x00, 0x00, 0x00, 0x00, 0x00, 0x00, 0x00, 0x00, 0x68, 0xe5, 0xff, 0xff,
  0x6c, 0xe5, 0xff, 0xff, 0x70, 0xe5, 0xff, 0xff, 0x74, 0xe5, 0xff, 0xff,
  0x78, 0xe5, 0xff, 0xff, 0xc2, 0xea, 0xff, 0xff, 0x04, 0x00, 0x00, 0x00,
  0x80, 0x00, 0x00, 0x00, 0xcc, 0xd6, 0x65, 0xbf, 0xb1, 0xfd, 0xfc, 0x3e,
  0xb9, 0x4e, 0x11, 0xbf, 0x52, 0x96, 0x8e, 0xbe, 0xa7, 0xa1, 0xc1, 0xbe,
  0xa5, 0xaf, 0x2e, 0x3f, 0x4a, 0x50, 0x0a, 0xbf, 0x9d, 0x28, 0xbc, 0x3e,
  0xf5, 0xc7, 0xe3, 0xbe, 0xf0, 0xcf, 0x5c, 0x3f, 0xbc, 0x45, 0x7a, 0x3e,
  0x4b, 0x8b, 0x2e, 0x3f, 0x1e, 0xec, 0xb8, 0xbe, 0xad, 0x08, 0xf7, 0xbe,
  0xf1, 0x21, 0x2a, 0x3f, 0x6f, 0x0b, 0x16, 0xbf, 0x11, 0xca, 0x98, 0xbe,
  0x87, 0xd7, 0xff, 0x3e, 0x3d, 0x38, 0x96, 0x3e, 0xe9, 0xba, 0x32, 0x3f,
  0xe8, 0x93, 0x9a, 0xbe, 0x9d, 0x0e, 0x32, 0x3f, 0x86, 0x9d, 0x88, 0xbe,
  0x5b, 0x5e, 0x0c, 0xbf, 0x1b, 0x63, 0x17, 0x3f, 0xc7, 0xd6, 0x38, 0x3f,
  0x30, 0x06, 0x28, 0x3f, 0x4d, 0xaa, 0xcf, 0xbe, 0xe6, 0x89, 0xdb, 0xbe,
  0x47, 0xb9, 0x9f, 0x3e, 0x3f, 0x24, 0x05, 0xbf, 0xf4, 0x2b, 0x2c, 0x3f,
  0x4e, 0xeb, 0xff, 0xff, 0x04, 0x00, 0x00, 0x00, 0x00, 0x10, 0x00, 0x00,
  0x72, 0x04, 0x9a, 0xbe, 0xd6, 0xe9, 0xba, 0xbf, 0x9a, 0xb2, 0x33, 0xbf,
  0x63, 0x68, 0x29, 0xbf, 0xb2, 0x2a, 0xd5, 0xbf, 0x72, 0xec, 0x40, 0xbd,
  0x7b, 0xe7, 0xd8, 0xbd, 0x87, 0x29, 0x38, 0xbf, 0xd5, 0xf0, 0x6c, 0x3f,
  0xa5, 0xef, 0x48, 0xbf, 0x89, 0x1a, 0x80, 0xbf, 0xef, 0xfa, 0xbd, 0x3e,
  0xd0, 0x0d, 0x3c, 0x3d, 0x43, 0x70, 0xea, 0xbf, 0xf1, 0x77, 0x3c, 0xbf,
  0xc3, 0x5f, 0x8b, 0x3f, 0x07, 0xc0, 0x90, 0xbf, 0x3d, 0xfa, 0xec, 0x3e,
  0xe7, 0x6a, 0x36, 0x3f, 0xe9, 0x89, 0x0b, 0xbe, 0xf6, 0x5e, 0xa6, 0x3e,
  0x6d, 0xda, 0xa8, 0x3d, 0x18, 0x6d, 0xc1, 0xbf, 0x02, 0xfa, 0xf4, 0xbe,
  0xe8, 0x09, 0x05, 0xbe, 0x54, 0xd2, 0x1a, 0xbd, 0x5a, 0x88, 0x31, 0x40,
  0xa8, 0x65, 0xa5, 0xbf, 0xfc, 0xbb, 0x81, 0x3e, 0x4e, 0xa7, 0x62, 0x3d,
  0xd1, 0x1d, 0x58, 0x3f, 0x07, 0x7d, 0xfb, 0xbe, 0xad, 0xff, 0x0a, 0xbe,
  0x44, 0xac, 0xb2, 0xbe, 0x3f, 0x55, 0xa8, 0x3e, 0x50, 0x9b, 0xfc, 0xbe,
  0x3b, 0x58, 0x12, 0x3f, 0x51, 0xf8, 0x56, 0xbe, 0x53, 0xce, 0x16, 0xbe,
  0x59, 0x93, 0xdb, 0xbe, 0x7a, 0x7d, 0x5e, 0x3f, 0x2e, 0x8e, 0xc5, 0xbe,
  0x5d, 0xec, 0xbe, 0xbe, 0x24, 0x56, 0x16, 0x3f, 0xe7, 0x56, 0x0d, 0xbf,
  0xe2, 0x27, 0x7f, 0xbf, 0xb5, 0xaf, 0x27, 0x3f, 0xa0, 0x2e, 0x60, 0x3e,
  0xfc, 0x81, 0x7a, 0xbe, 0x14, 0x8a, 0x73, 0xbe, 0x7d, 0xe7, 0x97, 0x3e,
  0xbc, 0x3e, 0x89, 0xbe, 0xb2, 0x95, 0x01, 0xbf, 0x06, 0xbd, 0x49, 0xbf,
  0xf9, 0x8f, 0x04, 0x3e, 0x67, 0x2e, 0xa8, 0x3e, 0x06, 0xd9, 0x37, 0x3e,
  0x90, 0x7c, 0x2a, 0x3e, 0xf6, 0x57, 0x22, 0xbe, 0x00, 0x73, 0x44, 0xbe,
  0x7a, 0xa2, 0x8e, 0x3e, 0x90, 0xcb, 0x85, 0xbe, 0x58, 0xae, 0xb9, 0x3d,
  0x20, 0x3d, 0xbe, 0xbe, 0x7a, 0x9c, 0xa6, 0xbf, 0xda, 0xd3, 0xeb, 0xbe,
  0x7f, 0x74, 0x5f, 0xbe, 0xca, 0xe0, 0xc5, 0x3e, 0xdf, 0xcf, 0x78, 0x3e,
  0xe6, 0xd5, 0x86, 0x3e, 0x39, 0x20, 0x45, 0xbe, 0xfc, 0x1e, 0x86, 0xbd,
  0x93, 0xe7, 0x88, 0x3c, 0x8e, 0x39, 0xad, 0xbe, 0x2c, 0xda, 0xbf, 0x3d,
  0xee, 0xd8, 0x65, 0x3e, 0xbb, 0x1f, 0x19, 0x3f, 0x40, 0x6b, 0x84, 0x3f,
  0x3a, 0xc6, 0x90, 0xbf, 0x95, 0x71, 0xba, 0x3e, 0x49, 0x71, 0x3d, 0x3e,
  0x3c, 0xef, 0xde, 0xbe, 0x29, 0xed, 0x8b, 0x3e, 0x79, 0xcf, 0xa3, 0xbe,
  0x58, 0x27, 0xb3, 0x3e, 0xff, 0xbc, 0xbe, 0xbe, 0xda, 0x28, 0x54, 0x3f,
  0x80, 0xd4, 0x64, 0x3e, 0xbc, 0x12, 0x84, 0x3c, 0xce, 0xa4, 0xcb, 0x3e,
  0x06, 0x88, 0x92, 0xbf, 0x2c, 0x53, 0x9c, 0xbe, 0x2d, 0x85, 0x84, 0x3d,
  0x00, 0x41, 0x75, 0xbf, 0xa9, 0x99, 0x4d, 0x3f, 0xd1, 0xdf, 0xdc, 0x3e,
  0x94, 0xae, 0xbd, 0x3e, 0xd1, 0x57, 0x21, 0x3e, 0x95, 0x88, 0xb8, 0xbd,
  0xde, 0x86, 0x65, 0xbd, 0xf5, 0xd0, 0x3e, 0xbf, 0x92, 0x12, 0xc3, 0xbe,
  0x18, 0x75, 0xa6, 0xbe, 0xfc, 0xe8, 0x70, 0x3f, 0x95, 0x2b, 0xb7, 0xbe,
  0xa7, 0x31, 0x2f, 0xbe, 0x92, 0xd7, 0x63, 0xbf, 0x9c, 0xb8, 0x01, 0xbe,
  0x42, 0x1f, 0xcf, 0xbf, 0xa9, 0x87, 0x68, 0x3e, 0x56, 0x80, 0x70, 0xbe,
  0x67, 0xdc, 0x9b, 0xbe, 0x79, 0x36, 0x93, 0xbf, 0xb8, 0x53, 0x43, 0x3d,
  0x55, 0x05, 0xce, 0xbd, 0xd8, 0xab, 0xe8, 0xbb, 0xc7, 0xa8, 0xe8, 0x3e,
  0x45, 0xb5, 0xa2, 0x3e, 0xa8, 0x57, 0xc6, 0xbe, 0x10, 0xf1, 0xb9, 0x3e,
  0xbb, 0x82, 0x0f, 0x3f, 0x50, 0xbf, 0xe7, 0xbe, 0x29, 0xaa, 0xba, 0x3e,
  0x29, 0x6d, 0x4e, 0xbf, 0xf7, 0xae, 0x93, 0xbe, 0x15, 0xe0, 0xf2, 0xbe,
  0x5d, 0xac, 0xfc, 0x3e, 0x06, 0xa1, 0x7f, 0x3f, 0x78, 0x98, 0x8f, 0x3f,
  0x4e, 0xf3, 0xe1, 0xbe, 0xb5, 0xed, 0x55, 0xbf, 0x75, 0xac, 0xc4, 0x3e,
  0x90, 0xf6, 0xe5, 0x3c, 0x2e, 0x82, 0xda, 0xbe, 0xfa, 0x51, 0xa3, 0xbf,
  0x05, 0x17, 0x8c, 0x3e, 0x16, 0x8f, 0x2b, 0xbd, 0xca, 0x59, 0xea, 0xbf,
  0x56, 0xc3, 0x4c, 0xbe, 0x0e, 0x81, 0x81, 0x3e, 0x5b, 0xb0, 0x49, 0x3f,
  0x19, 0x5d, 0x35, 0x3e, 0x13, 0xa6, 0x22, 0xbf, 0x6d, 0x38, 0xb7, 0xbf,
  0x6c, 0xe8, 0xc2, 0xbe, 0xf6, 0xb6, 0x11, 0x3e, 0x0e, 0x81, 0xf1, 0x3e,
  0x61, 0x36, 0x1d, 0xbf, 0x44, 0xcf, 0x27, 0x3f, 0x4e, 0x27, 0x8b, 0xbf,
  0x07, 0xab, 0x91, 0xbe, 0x15, 0x7d, 0xcf, 0x3f, 0xb8, 0x78, 0x06, 0xbf,
  0x4b, 0xf5, 0x12, 0x3f, 0xdc, 0x26, 0x95, 0xbe, 0x52, 0x5c, 0xf3, 0xbe,
  0x05, 0x7b, 0x1f, 0x3f, 0x31, 0x25, 0xcb, 0x3e, 0x21, 0x46, 0x69, 0xbf,
  0x18, 0x30, 0x18, 0xbf, 0x48, 0x0e, 0x1d, 0x3e, 0x0e, 0x6e, 0x0e, 0xbf,
  0x6a, 0x3e, 0x2b, 0x3e, 0xa8, 0x51, 0xf2, 0xbc, 0xf9, 0x94, 0x0a, 0xc0,
  0x90, 0x70, 0x1c, 0x3e, 0x4a, 0x44, 0x4e, 0x3f, 0x81, 0xcd, 0x19, 0xc0,
  0xfe, 0xb2, 0x0f, 0x40, 0x7a, 0xd5, 0xab, 0xbf, 0x9f, 0x9c, 0x04, 0x3f,
  0xd7, 0x6e, 0x06, 0x3f, 0xf3, 0x30, 0x84, 0xbf, 0xe8, 0xdc, 0xa7, 0xbe,
  0x23, 0x5a, 0x73, 0xbe, 0x5b, 0x87, 0xdc, 0x3e, 0xea, 0x36, 0x34, 0xbf,
  0x87, 0xc2, 0x95, 0xbf, 0xf3, 0x2e, 0xe4, 0x3f, 0x11, 0x33, 0xe5, 0xbf,
  0x10, 0x1a, 0xe4, 0xbe, 0x4d, 0xf8, 0x7c, 0x3f, 0x8f, 0x7f, 0xc1, 0xbf,
  0xa1, 0xc9, 0x0b, 0xbe, 0x2c, 0x42, 0x03, 0x3e, 0x7d, 0x2a, 0x2f, 0x40,
  0xf6, 0xd5, 0x99, 0xbf, 0x36, 0x0b, 0xf0, 0xbe, 0x78, 0xc7, 0x34, 0xbf,
  0x95, 0xf7, 0xc5, 0x3f, 0x91, 0xbe, 0xf4, 0x3f, 0xfb, 0xf8, 0x93, 0x3f,
  0xaf, 0xb0, 0x84, 0xbf, 0x21, 0x69, 0x4d, 0xbf, 0x64, 0x2d, 0x17, 0x3e,
  0x7f, 0xc6, 0xf9, 0xbd, 0xfb, 0x37, 0x0d, 0x3f, 0xdd, 0x47, 0xa7, 0xbe,
  0x0c, 0xa5, 0xdd, 0x3e, 0xe8, 0xa8, 0x60, 0x3e, 0xbb, 0xd6, 0x0a, 0xbe,
  0x00, 0x75, 0xc1, 0x3f, 0x3f, 0xb6, 0x6f, 0x3e, 0xc9, 0x9b, 0xed, 0xbe,
  0xfc, 0xe3, 0x91, 0x3c, 0x89, 0x9d, 0x26, 0x3f, 0xd1, 0xda, 0x44, 0xbf,
  0xdc, 0x21, 0xea, 0xbe, 0xac, 0x7f, 0x91, 0x3f, 0x4a, 0x8a, 0xbc, 0x3d,
  0xea, 0x86, 0x9b, 0x3d, 0x3b, 0xe2, 0xa5, 0xbe, 0xb1, 0x6d, 0xb9, 0x3e,
  0xeb, 0x7d, 0x27, 0xbf, 0xfc, 0xd0, 0xe1, 0xbe, 0xcb, 0xba, 0x36, 0xbf,
  0x0b, 0xf1, 0x98, 0x3f, 0x69, 0x56, 0x2d, 0x3e, 0x2b, 0xf5, 0x65, 0xbf,
  0x85, 0x06, 0x82, 0xbe, 0x6e, 0xdb, 0x03, 0xbf, 0x7b, 0x07, 0x64, 0x3f,
  0x3a, 0x56, 0x1f, 0xbe, 0x4a, 0x77, 0x1d, 0x3f, 0xc9, 0x9f, 0xa8, 0x3d,
  0x9a, 0xb6, 0xb1, 0xbf, 0xd5, 0x10, 0xf0, 0xbe, 0x9f, 0xbe, 0xf1, 0x3e,
  0x81, 0x85, 0x03, 0x3f, 0xc7, 0xea, 0xbc, 0x3e, 0xbd, 0x81, 0xa1, 0xbe,
  0xfc, 0xd0, 0x34, 0x3f, 0x42, 0x25, 0xe4, 0x3e, 0xad, 0x9c, 0xea, 0x3d,
  0x64, 0xb4, 0x80, 0x3e, 0x3b, 0x11, 0x9f, 0xbf, 0xc2, 0x96, 0x98, 0xbe,
  0x67, 0xfb, 0xdb, 0x3e, 0x0c, 0xc6, 0x8e, 0xbe, 0x3c, 0xca, 0x6f, 0x3f,
  0x8c, 0x89, 0x1c, 0xbf, 0xb3, 0xa7, 0x0a, 0x3f, 0x38, 0x3b, 0xf8, 0x3e,
  0x15, 0x34, 0x9d, 0x3e, 0x77, 0x11, 0xe9, 0x3e, 0xc0, 0x20, 0x84, 0xbc,
  0x2b, 0xbd, 0x83, 0x3d, 0x44, 0xc1, 0xf4, 0x3d, 0x8b, 0x3b, 0x34, 0x3f,
  0xd5, 0xd3, 0x0a, 0xbf, 0xff, 0x7b, 0xb0, 0x3f, 0xdc, 0xde, 0xa2, 0xbe,
  0x32, 0x4f, 0x83, 0xbf, 0x91, 0x43, 0x09, 0xbe, 0x0d, 0xac, 0x5c, 0xbf,
  0x4e, 0xb6, 0xd2, 0x3c, 0x14, 0x97, 0xe4, 0xbb, 0x16, 0x79, 0xc1, 0xbf,
  0x0f, 0x0c, 0xf9, 0xbf, 0xae, 0xb9, 0xce, 0x3d, 0xdf, 0x4e, 0xfe, 0x3e,
  0x54, 0x4c, 0x98, 0x3e, 0xef, 0x93, 0x21, 0xbf, 0x48, 0x4a, 0xbf, 0x3f,
  0xe3, 0x13, 0x46, 0xbf, 0xa5, 0xd8, 0x0d, 0xbf, 0x4d, 0x7a, 0xfc, 0xbe,
  0xfa, 0x9f, 0x4c, 0xbf, 0x5c, 0x63, 0xbb, 0xbb, 0x1e, 0x1d, 0x32, 0x3e,
  0x4e, 0x82, 0x2d, 0x3e, 0x26, 0x08, 0x33, 0xbf, 0xb3, 0xc6, 0xd3, 0x3d,
  0xdb, 0xaa, 0xb2, 0x3e, 0x5c, 0xcc, 0x5e, 0xbe, 0x13, 0x67, 0x86, 0xbb,
  0x8f, 0x3c, 0x95, 0x3f, 0x66, 0x26, 0xaa, 0x3e, 0xab, 0x2c, 0x78, 0xbe,
  0x21, 0xd5, 0x64, 0xbe, 0x55, 0xda, 0x74, 0x3f, 0xa8, 0xc7, 0x51, 0xbe,
  0xb3, 0x4f, 0xa4, 0x3f, 0xb6, 0xbd, 0x6c, 0xbf, 0x64, 0x1f, 0xdd, 0xbd,
  0xcc, 0x4c, 0xa6, 0xbf, 0x57, 0xf3, 0x92, 0x3d, 0x6c, 0x1b, 0x86, 0x3e,
  0x25, 0x29, 0xd8, 0xbf, 0x81, 0x42, 0xf2, 0x3e, 0xe0, 0x50, 0xce, 0x3f,
  0xcc, 0x10, 0x7e, 0x3d, 0x3f, 0xba, 0x9a, 0xbe, 0x51, 0x12, 0xf4, 0x3e,
  0x78, 0xba, 0xe0, 0xbf, 0x17, 0x67, 0x59, 0xbf, 0x7c, 0x3f, 0xd0, 0x3d,
  0xe8, 0x63, 0xc7, 0xbf, 0x88, 0x65, 0x6f, 0xbf, 0xbf, 0x6d, 0x71, 0x3f,
  0x9a, 0x03, 0x6a, 0x3f, 0x51, 0x50, 0x98, 0xbf, 0xae, 0x0d, 0x40, 0xbf,
  0x10, 0x6a, 0x76, 0xbe, 0x43, 0x68, 0x27, 0xbf, 0x11, 0x09, 0xcb, 0x3f,
  0x10, 0x5b, 0x20, 0x3f, 0xb8, 0x3c, 0x45, 0xbf, 0x54, 0x49, 0xb8, 0xbf,
  0xdd, 0x9f, 0xa3, 0xbf, 0xd1, 0xf3, 0x59, 0x3f, 0xfa, 0x2d, 0x59, 0x3e,
  0x6f, 0x88, 0x3b, 0xbf, 0xac, 0xb5, 0x05, 0x3f, 0xf8, 0x1e, 0x4f, 0xbf,
  0x61, 0x82, 0xde, 0xbf, 0x28, 0xb6, 0x2f, 0xbf, 0x18, 0x8b, 0x64, 0x3f,
  0xd4, 0x66, 0xc9, 0x3d, 0x90, 0x30, 0x49, 0x3f, 0x97, 0x77, 0xfe, 0x3e,
  0xbf, 0x47, 0xc7, 0x3e, 0xae, 0x1e, 0x03, 0x3f, 0xa2, 0xb3, 0xad, 0x3e,
  0x7d, 0x7d, 0xc8, 0xbd, 0x39, 0x6a, 0x0a, 0x3e, 0xf1, 0xfe, 0xb1, 0xbe,
  0x7e, 0x39, 0xd1, 0x3e, 0x53, 0x17, 0x43, 0xbf, 0x28, 0xc0, 0x70, 0xbd,
  0x78, 0xe3, 0x2c, 0x3f, 0x65, 0x07, 0xa2, 0xbe, 0x53, 0xa2, 0xd9, 0x3d,
  0xbf, 0xb0, 0x15, 0x3e, 0x0a, 0x6a, 0x31, 0x3d, 0xb2, 0xa5, 0x0a, 0xbf,
  0x37, 0x94, 0x90, 0x3f, 0xce, 0x02, 0x0e, 0x3f, 0x7a, 0x95, 0x25, 0x3f,
  0x86, 0xc3, 0x15, 0xbe, 0xeb, 0x94, 0xb5, 0xbe, 0x4c, 0xda, 0x20, 0xbe,
  0xa4, 0x5b, 0xb8, 0x3f, 0x88, 0xc4, 0x33, 0x3f, 0x7f, 0xc3, 0x5a, 0x3e,
  0xcc, 0xfe, 0xc4, 0x3d, 0x72, 0x0e, 0x1d, 0xbf, 0x03, 0x43, 0x31, 0xbe,
  0xf0, 0xf1, 0x82, 0xbd, 0xb7, 0x01, 0x07, 0x3f, 0x1d, 0x5c, 0xda, 0xbe,
  0x45, 0xb7, 0x0f, 0x3f, 0x8d, 0x44, 0x50, 0xbe, 0x72, 0xe5, 0x0f, 0xbe,
  0xc3, 0x14, 0x02, 0x3e, 0x66, 0xb9, 0x00, 0xbf, 0x04, 0x83, 0x2c, 0xbd,
  0x39, 0x43, 0x79, 0xbf, 0xdc, 0xe6, 0x22, 0x3f, 0x52, 0x81, 0xa9, 0xbf,
  0xfd, 0xec, 0x63, 0x3f, 0xa3, 0xbd, 0x42, 0xbf, 0x9b, 0xe4, 0x52, 0x3e,
  0xd1, 0xa2, 0x15, 0x3f, 0x85, 0x6b, 0x4e, 0x3f, 0x16, 0x51, 0x66, 0x3e,
  0xa3, 0x85, 0x39, 0xbe, 0xad, 0xd4, 0x4a, 0xbf, 0xab, 0x65, 0xac, 0x3f,
  0x08, 0x6a, 0x9a, 0x3d, 0xbb, 0x66, 0x77, 0x3f, 0x5d, 0x0d, 0x71, 0xbe,
  0x32, 0xe0, 0x78, 0xbf, 0x2a, 0x07, 0x06, 0xbf, 0xac, 0xe3, 0xb0, 0xbe,
  0xdf, 0xaf, 0x02, 0x3f, 0x0c, 0x92, 0x95, 0xbe, 0xfa, 0x50, 0x32, 0x3f,
  0x3a, 0x19, 0xb8, 0xbe, 0x1c, 0xe9, 0x02, 0xbf, 0x8f, 0x4d, 0xc0, 0x3e,
  0xfe, 0xe2, 0x4b, 0x3e, 0x6c, 0x8f, 0x8a, 0x3c, 0xd8, 0xe2, 0x9a, 0x3e,
  0x92, 0xa4, 0x3f, 0x3f, 0x0b, 0x89, 0xa9, 0x3e, 0xe3, 0x1d, 0x49, 0x3e,
  0x39, 0x2c, 0xd7, 0xbe, 0xf7, 0x23, 0xd3, 0x3e, 0xf3, 0x7f, 0xa2, 0xbb,
  0x0d, 0xb5, 0x2a, 0xbc, 0xaf, 0x3d, 0xd6, 0x3e, 0xdb, 0xbf, 0xad, 0x3e,
  0xae, 0x29, 0xe9, 0xbe, 0x3d, 0xeb, 0x9d, 0xbc, 0xd2, 0x93, 0x5e, 0xbf,
  0x42, 0x04, 0x46, 0xbf, 0x1f, 0x0a, 0x98, 0x3c, 0xe0, 0xe6, 0xc1, 0x3d,
  0xa8, 0xdc, 0xa6, 0x3f, 0x83, 0x49, 0x03, 0xbf, 0x70, 0xfd, 0xa9, 0x3d,
  0xe2, 0xfc, 0x09, 0x3e, 0x32, 0x5f, 0xb6, 0x3e, 0x0c, 0x92, 0x1b, 0x3f,
  0x5c, 0xd9, 0x86, 0x3d, 0xb2, 0x67, 0xda, 0x3e, 0xcc, 0x5e, 0x85, 0xbd,
  0x77, 0x5e, 0xc7, 0x3e, 0x86, 0x52, 0xdd, 0xbe, 0xf0, 0xbe, 0x14, 0xbf,
  0x86, 0xff, 0x29, 0xbe, 0x6a, 0x8f, 0x86, 0xbe, 0x9b, 0x2e, 0x18, 0xbe,
  0xff, 0x16, 0xaf, 0xbd, 0xb4, 0x38, 0x6d, 0xbe, 0x32, 0x79, 0x38, 0xbe,
  0x7c, 0x71, 0xca, 0xbe, 0xee, 0x33, 0xbe, 0x3f, 0x3f, 0x22, 0x14, 0x3e,
  0x09, 0x58, 0x42, 0x3e, 0x54, 0xcc, 0x9f, 0x3e, 0xc5, 0x72, 0x9c, 0xbf,
  0x8a, 0x93, 0x6c, 0x3f, 0xe5, 0x55, 0x30, 0xbf, 0xcc, 0xb8, 0x6d, 0x3f,
  0x74, 0x89, 0x95, 0xbd, 0xb9, 0xad, 0xd8, 0xbe, 0x2e, 0x50, 0xb1, 0x3e,
  0x28, 0xbd, 0x08, 0xbf, 0x0e, 0x49, 0xe4, 0x3e, 0xb8, 0xcd, 0xf3, 0xbe,
  0xfd, 0x0a, 0x27, 0x3f, 0x21, 0x28, 0x22, 0x3f, 0x2c, 0x5b, 0x9c, 0x3f,
  0x9c, 0x0e, 0x02, 0xbf, 0x7b, 0xac, 0x5b, 0x3f, 0xc7, 0xa5, 0x38, 0xbe,
  0xd2, 0xd9, 0x38, 0x3f, 0x8d, 0xbe, 0xf4, 0xbe, 0xbd, 0x98, 0x05, 0xbf,
  0x02, 0xc1, 0xea, 0xbe, 0xc8, 0x88, 0x95, 0xbe, 0xb7, 0xa1, 0xeb, 0x3e,
  0x3e, 0x26, 0x86, 0xbe, 0x5a, 0x73, 0x04, 0x3e, 0xf2, 0xb5, 0xa9, 0x3e,
  0x3f, 0x7b, 0x8e, 0x3f, 0xa7, 0xb9, 0x90, 0xbf, 0x94, 0xb7, 0x04, 0x3e,
  0xc4, 0x4a, 0xa7, 0xbe, 0x43, 0xc8, 0x10, 0xbf, 0x3c, 0xdc, 0xb1, 0x3e,
  0x00, 0x83, 0x00, 0xbf, 0x20, 0x8a, 0xbb, 0x3f, 0x68, 0x79, 0xb1, 0xbf,
  0x24, 0x4c, 0xbc, 0x3e, 0xc5, 0x0e, 0x03, 0xbe, 0xdb, 0xaf, 0x41, 0x3f,
  0x07, 0xc4, 0x36, 0x3c, 0xee, 0xda, 0xdb, 0x3d, 0x64, 0x18, 0x6e, 0x3f,
  0x17, 0x82, 0x3f, 0xbf, 0xa7, 0xe4, 0x41, 0x3f, 0x28, 0x2d, 0x58, 0xbe,
  0x65, 0x34, 0x72, 0xbe, 0xba, 0x51, 0xd8, 0x3d, 0x9f, 0xe6, 0x56, 0x3f,
  0x3a, 0xb4, 0xd2, 0xbf, 0xcb, 0x95, 0x07, 0xc0, 0xd7, 0xc6, 0xc8, 0x3e,
  0x08, 0xdd, 0x20, 0xbf, 0xac, 0x85, 0x13, 0x3f, 0x1d, 0x49, 0x17, 0xbf,
  0xf3, 0x83, 0x8c, 0xbf, 0xe6, 0x4d, 0x67, 0xbf, 0x28, 0x3d, 0xa4, 0x3e,
  0x14, 0xb6, 0x43, 0x3f, 0x8a, 0x08, 0xaa, 0x3f, 0x6e, 0xc5, 0x0b, 0x3e,
  0x6b, 0xbe, 0xb4, 0x3e, 0x6e, 0x79, 0x41, 0x3f, 0xc7, 0xd1, 0xa1, 0xbc,
  0xbd, 0x52, 0x3c, 0x3e, 0x2f, 0xc1, 0xcc, 0x3e, 0x80, 0xea, 0x64, 0x3e,
  0x36, 0xac, 0x8d, 0x3e, 0x36, 0x1f, 0x8a, 0xbf, 0xbc, 0x6d, 0x2d, 0x3f,
  0x46, 0xb1, 0x49, 0x3f, 0x17, 0x59, 0x31, 0x3f, 0x14, 0xde, 0x36, 0x3d,
  0x71, 0x07, 0x8d, 0x3f, 0xeb, 0x28, 0xc2, 0x3f, 0x6b, 0xc7, 0x51, 0xbf,
  0xd4, 0x85, 0xd7, 0x3f, 0x9a, 0x3f, 0x44, 0xbe, 0xcf, 0x22, 0x62, 0xbe,
  0x38, 0x42, 0xba, 0x3e, 0x08, 0x40, 0x26, 0x3f, 0x4f, 0x17, 0x53, 0xbf,
  0xec, 0x89, 0x3b, 0xbe, 0x39, 0x02, 0xbb, 0xbe, 0x5f, 0x5e, 0x18, 0xbe,
  0x54, 0xbe, 0x16, 0x3f, 0xe1, 0x94, 0x5d, 0xbf, 0x92, 0x16, 0x3f, 0x3b,
  0x6a, 0x00, 0xac, 0x3e, 0x3b, 0xa5, 0x2d, 0xbe, 0x6d, 0xdb, 0x39, 0xbb,
  0x3e, 0x41, 0x1a, 0x3e, 0xfd, 0xc7, 0x0a, 0x3f, 0x43, 0xaa, 0x0b, 0x3f,
  0xea, 0xfc, 0x1c, 0xbf, 0x9d, 0x55, 0x83, 0xbf, 0x5c, 0x7f, 0x0c, 0xbc,
  0x21, 0x88, 0xa6, 0x3e, 0xd7, 0xe2, 0xd7, 0xbe, 0x3d, 0x4c, 0x82, 0xbd,
  0x25, 0x5c, 0x66, 0x3e, 0xa9, 0x36, 0x31, 0x3e, 0x2a, 0x2c, 0x8b, 0xbe,
  0x22, 0x46, 0x61, 0x3f, 0x09, 0xc3, 0x75, 0x3e, 0xae, 0x50, 0x39, 0xbe,
  0x20, 0x80, 0xe0, 0xbe, 0x6b, 0x08, 0x1e, 0xbe, 0x30, 0x0b, 0xe0, 0x3e,
  0x24, 0x29, 0x39, 0xbd, 0x49, 0xe3, 0x72, 0xbf, 0xe1, 0x09, 0x92, 0xbd,
  0x85, 0x2d, 0xc4, 0x3e, 0x07, 0xa4, 0xd7, 0x3e, 0x55, 0x51, 0xd5, 0xbe,
  0x6f, 0xf1, 0x84, 0xbf, 0x8b, 0xe3, 0xa7, 0xbe, 0x9e, 0xce, 0x58, 0x3e,
  0x23, 0xc0, 0x8a, 0xbe, 0xbd, 0xaf, 0x9d, 0xbf, 0xe3, 0xb1, 0xd8, 0x3d,
  0x9a, 0x5a, 0x3a, 0x3f, 0x87, 0xb4, 0x87, 0xbe, 0x1e, 0xf8, 0xd4, 0xbe,
  0xd4, 0x5a, 0x9f, 0xbe, 0x48, 0xe5, 0x70, 0x3f, 0x46, 0x57, 0xdd, 0x3e,
  0xbc, 0x96, 0x0d, 0xbd, 0xb6, 0xe7, 0x24, 0xbd, 0x57, 0xee, 0x87, 0x3f,
  0x66, 0xa8, 0x2d, 0x3f, 0x5a, 0x6a, 0x30, 0xbe, 0x77, 0xca, 0xc4, 0xbe,
  0xb3, 0x80, 0xa9, 0x3e, 0x2d, 0x03, 0x85, 0x3f, 0x4c, 0x7e, 0x82, 0x3f,
  0x0d, 0x79, 0xfa, 0xbe, 0x8c, 0xb5, 0xb7, 0x3e, 0x18, 0x12, 0x23, 0x3e,
  0x4d, 0xe0, 0xc4, 0xbe, 0x49, 0xbd, 0xd2, 0xbd, 0xa3, 0x38, 0x61, 0x3f,
  0x1d, 0xd4, 0x0a, 0xbf, 0xe3, 0x62, 0x09, 0xbc, 0xa6, 0xbd, 0x3c, 0x3e,
  0xff, 0xc7, 0x4d, 0xbf, 0x2f, 0xe5, 0xbe, 0x3f, 0x1d, 0x90, 0x4e, 0xbf,
  0x92, 0x81, 0x15, 0xbe, 0xe9, 0x39, 0xa0, 0xbd, 0x3a, 0xf2, 0x8d, 0x3e,
  0x37, 0x33, 0x9d, 0xbe, 0x41, 0xf3, 0x94, 0x3f, 0x0a, 0x1f, 0x03, 0x3f,
  0x2a, 0x07, 0x30, 0xbf, 0x01, 0x54, 0x00, 0xbf, 0xcf, 0xe3, 0x52, 0xbe,
  0xd2, 0x1d, 0x13, 0xbf, 0xfb, 0xd3, 0x09, 0x3f, 0xf1, 0xbd, 0x0b, 0xbf,
  0x97, 0x36, 0xc6, 0xbe, 0x14, 0xca, 0xf4, 0xbe, 0x69, 0x1d, 0x3f, 0xbe,
  0x29, 0x8c, 0x43, 0x3f, 0x50, 0x06, 0xa0, 0xbf, 0xfc, 0x1a, 0x6c, 0x3f,
  0x2e, 0x18, 0xc9, 0xbd, 0x06, 0xdc, 0x80, 0x3f, 0xf8, 0x18, 0x61, 0x3f,
  0x02, 0x08, 0x22, 0x3f, 0xdb, 0x6e, 0x1e, 0x3f, 0x33, 0x47, 0xfa, 0xbe,
  0xa2, 0x27, 0x2a, 0xbf, 0xcd, 0x9b, 0x61, 0x3f, 0x50, 0x57, 0xc1, 0xbe,
  0x1f, 0xfb, 0xed, 0x3d, 0x12, 0x2e, 0x73, 0x3f, 0x11, 0x4f, 0xbc, 0x3e,
  0x6d, 0xe1, 0xe8, 0x3b, 0xc4, 0x33, 0x05, 0xbf, 0xeb, 0x20, 0xf2, 0xbe,
  0xb9, 0x55, 0xee, 0x3d, 0x10, 0xf6, 0xe4, 0x3e, 0xfa, 0xcb, 0xe2, 0x3e,
  0xb1, 0x51, 0x03, 0xbe, 0x6a, 0x6d, 0x13, 0xbf, 0x7a, 0xf4, 0x9c, 0x3f,
  0x9e, 0xfd, 0xed, 0xbd, 0x95, 0xe4, 0xd7, 0x3d, 0xb7, 0x8d, 0x95, 0x3f,
  0x64, 0x06, 0x94, 0xbe, 0x8b, 0x23, 0x0f, 0x3a, 0x4e, 0x7f, 0x0d, 0xbf,
  0xd3, 0x56, 0xd0, 0xbe, 0x89, 0x3f, 0xf4, 0x3e, 0x2b, 0x82, 0x06, 0xbf,
  0x3e, 0xf7, 0xb6, 0x3e, 0x21, 0xba, 0x9b, 0x3e, 0x2d, 0x1c, 0xa2, 0x3f,
  0x37, 0x61, 0x6d, 0xbf, 0xaa, 0x91, 0x13, 0xbe, 0xfd, 0x6a, 0x31, 0xbf,
  0x28, 0x2c, 0xc8, 0xbe, 0x98, 0x64, 0x56, 0x3f, 0x7c, 0x5b, 0xea, 0xbd,
  0x13, 0x72, 0x2a, 0xbf, 0xdc, 0xed, 0x92, 0x3e, 0xfe, 0x98, 0xac, 0xbe,
  0xc9, 0x37, 0x01, 0xbf, 0xe4, 0x44, 0x86, 0x3e, 0x7a, 0xf3, 0xb7, 0x3f,
  0xe7, 0x01, 0x03, 0xbe, 0xf2, 0x85, 0xc7, 0x3d, 0xc4, 0x1b, 0xba, 0x3d,
  0x96, 0xea, 0x01, 0x3e, 0x15, 0xe2, 0xc6, 0x3f, 0x04, 0x23, 0xb9, 0xbe,
  0xb7, 0xe6, 0x3c, 0xbe, 0x15, 0xd2, 0x7a, 0xbd, 0xf2, 0x0c, 0x87, 0xbe,
  0xee, 0x69, 0x9f, 0xbe, 0x4d, 0x41, 0xcf, 0xbe, 0x4c, 0x77, 0x2d, 0xbf,
  0xde, 0xcf, 0xf5, 0x3e, 0xa1, 0x08, 0x40, 0x3e, 0x2b, 0x9d, 0x57, 0x3f,
  0x47, 0xab, 0x0b, 0x3f, 0x9f, 0xf5, 0x08, 0xbe, 0xfb, 0x2e, 0x9a, 0x3d,
  0x11, 0x98, 0x59, 0xbe, 0x7b, 0xb5, 0xb7, 0x3e, 0xc5, 0x2f, 0xe3, 0xbe,
  0xf5, 0x55, 0x84, 0xbd, 0xb1, 0xad, 0x14, 0x3f, 0xbe, 0x74, 0x0b, 0x3e,
  0x40, 0x42, 0x00, 0x3f, 0x07, 0x92, 0x00, 0xbf, 0xcd, 0x7b, 0x8d, 0x3f,
  0x24, 0x79, 0x36, 0x3d, 0x57, 0x25, 0xb4, 0x3e, 0xb2, 0xfb, 0x61, 0x3d,
  0x6a, 0xe3, 0xb7, 0xbe, 0x70, 0xdf, 0xf1, 0xbe, 0x67, 0xb0, 0x66, 0x3f,
  0xe2, 0x5c, 0x8f, 0xbe, 0x8b, 0x6d, 0x09, 0x3e, 0x5f, 0x01, 0xcb, 0xbe,
  0x4f, 0x9f, 0x5d, 0x3f, 0x86, 0x94, 0x2b, 0x3f, 0x41, 0x93, 0xd3, 0xbe,
  0x08, 0x04, 0x74, 0x3e, 0x8a, 0x51, 0x91, 0xbe, 0xd8, 0xbc, 0xac, 0xbe,
  0x6d, 0xba, 0x02, 0xbf, 0x09, 0x6b, 0x7a, 0xbe, 0x33, 0xf7, 0x9d, 0x3d,
  0x5a, 0x17, 0x6d, 0x3f, 0xcc, 0x34, 0x3a, 0x3e, 0xfe, 0x22, 0x44, 0x3f,
  0x1d, 0x9e, 0x71, 0xbf, 0xd3, 0x1b, 0x03, 0x3f, 0xcb, 0x70, 0xdf, 0xbe,
  0xd7, 0x37, 0x1b, 0x3c, 0x4c, 0x98, 0x05, 0xc0, 0x86, 0xba, 0xc1, 0xbd,
  0xe4, 0xd8, 0x9a, 0x3f, 0xe5, 0xdc, 0xab, 0xbe, 0x3a, 0x79, 0x49, 0xbf,
  0xd4, 0x92, 0x2d, 0xbf, 0x71, 0x55, 0xd8, 0xbe, 0x82, 0xc7, 0xda, 0x3f,
  0xd5, 0xdd, 0x8c, 0xbe, 0x0c, 0x12, 0x4a, 0x3e, 0x02, 0xa3, 0x9e, 0xbf,
  0xca, 0x46, 0xf0, 0xbe, 0x7f, 0x93, 0xb3, 0xbe, 0x07, 0x51, 0xea, 0x3e,
  0x91, 0xbf, 0x82, 0xbe, 0x8a, 0xba, 0x88, 0xbf, 0xd0, 0x07, 0x98, 0x3f,
  0x9d, 0xe8, 0x77, 0xbe, 0xce, 0xa2, 0x29, 0x3f, 0xcf, 0x94, 0x8c, 0xbe,
  0x73, 0x43, 0x2d, 0xbf, 0x63, 0x15, 0x47, 0xbf, 0x1c, 0xfa, 0x1b, 0xbe,
  0xdb, 0xf8, 0xfa, 0xbe, 0xd0, 0xf6, 0x3f, 0x3d, 0xd3, 0x45, 0xc6, 0xbd,
  0x4a, 0x95, 0xcd, 0x3f, 0x8e, 0x99, 0xcc, 0xbd, 0x38, 0x51, 0x9a, 0xbf,
  0x36, 0x6e, 0x87, 0x3f, 0xb8, 0xee, 0xb6, 0x3d, 0x44, 0x95, 0x99, 0x3f,
  0xdf, 0xcb, 0x8f, 0x3d, 0xa6, 0x47, 0xbc, 0xbe, 0x1b, 0x8f, 0x31, 0x3f,
  0xff, 0x06, 0x50, 0xbf, 0x42, 0xe0, 0x75, 0x3f, 0x9d, 0x52, 0xbb, 0x3f,
  0xa6, 0xc1, 0x38, 0xbf, 0x6e, 0x6b, 0xf3, 0x3e, 0x7d, 0x6b, 0xc2, 0x3d,
  0xf3, 0x27, 0x7e, 0x3e, 0x58, 0x9b, 0x90, 0x3f, 0x63, 0x69, 0xce, 0xbe,
  0xa6, 0x88, 0x5f, 0x3f, 0xa3, 0x35, 0x33, 0x3f, 0xae, 0x40, 0x5a, 0xbf,
  0x36, 0x60, 0x4f, 0x3e, 0x0f, 0xc4, 0x0d, 0x3f, 0xaf, 0xed, 0x94, 0x3e,
  0x5e, 0xa5, 0x13, 0x3f, 0xc7, 0xde, 0x47, 0xbf, 0x16, 0x24, 0x74, 0xbf,
  0xf8, 0x21, 0xb7, 0xbf, 0xb9, 0x9f, 0x88, 0xbf, 0x29, 0x4a, 0x4a, 0xbf,
  0xf7, 0xa1, 0xc9, 0x3d, 0x34, 0xc6, 0x05, 0xbe, 0x34, 0x47, 0x26, 0x3f,
  0xe3, 0x3a, 0x89, 0xbe, 0x7b, 0xe6, 0x0c, 0xbf, 0xe2, 0x8e, 0x34, 0xbf,
  0xe7, 0x58, 0xa1, 0xbd, 0xb8, 0x85, 0x8a, 0xbf, 0x53, 0x2f, 0xad, 0x3e,
  0x92, 0xae, 0x9d, 0x3f, 0xbd, 0xfe, 0x79, 0x3f, 0xc9, 0x82, 0xdd, 0xbe,
  0xbb, 0xe0, 0x7b, 0xbf, 0x3f, 0x50, 0xd5, 0x3e, 0xb9, 0xc3, 0xc5, 0x3e,
  0x78, 0x93, 0x1d, 0x3f, 0x90, 0x9c, 0x29, 0xbe, 0x2d, 0x59, 0x3c, 0xbf,
  0xdb, 0xb3, 0xab, 0x3e, 0x75, 0xdb, 0x6c, 0xbf, 0xce, 0xa2, 0x24, 0xc0,
  0x44, 0xf8, 0x82, 0xbf, 0xed, 0xbc, 0xa1, 0xbe, 0xf2, 0x40, 0x61, 0xbd,
  0x32, 0xac, 0xac, 0x3f, 0x8b, 0x07, 0x19, 0x3f, 0x8c, 0x2c, 0xac, 0xbe,
  0x75, 0x5c, 0x2f, 0x3f, 0x9d, 0x7c, 0xaf, 0x3f, 0x79, 0xd8, 0x3d, 0xbe,
  0x53, 0xee, 0x5c, 0x3f, 0xad, 0xe7, 0xc1, 0xbe, 0xe1, 0x50, 0x3c, 0xbf,
  0x97, 0x46, 0x1c, 0xbf, 0xb6, 0x5a, 0x59, 0x3e, 0x72, 0xb3, 0xd7, 0x3d,
  0x9b, 0xd8, 0x16, 0xbf, 0x81, 0xec, 0xe8, 0x3f, 0x2b, 0x98, 0xb3, 0xbf,
  0xab, 0x7e, 0x96, 0x3c, 0x83, 0xf7, 0x05, 0xbe, 0xc1, 0x44, 0x8c, 0xbf,
  0x09, 0x68, 0x32, 0x3e, 0x69, 0x0b, 0x4b, 0xbe, 0x53, 0x9c, 0xc9, 0x3e,
  0xee, 0x86, 0x81, 0x3f, 0x55, 0x73, 0x7a, 0xbe, 0xe9, 0x63, 0x2f, 0x3e,
  0x3a, 0x5a, 0x5a, 0x3d, 0x4e, 0xa3, 0xbd, 0xbd, 0x99, 0xbf, 0x62, 0x3f,
  0xdb, 0x57, 0x91, 0x3e, 0x29, 0x89, 0x29, 0xbd, 0xe8, 0x80, 0x34, 0xbf,
  0x88, 0x11, 0x92, 0x3e, 0xa0, 0xdb, 0x0e, 0xbf, 0xa5, 0x4b, 0x1f, 0xbe,
  0x8b, 0xca, 0x3c, 0xbe, 0x62, 0xd4, 0xa0, 0x3e, 0xf8, 0xaf, 0x51, 0xbf,
  0x1f, 0x2b, 0x69, 0x3e, 0xad, 0xf0, 0x20, 0xbe, 0xfa, 0xb9, 0x13, 0xbe,
  0x6b, 0xad, 0xa4, 0xbe, 0xb1, 0xc7, 0x6c, 0xbf, 0x58, 0x2b, 0x0c, 0xbe,
  0xd7, 0x97, 0x59, 0x3e, 0xa2, 0x61, 0x85, 0x3e, 0x33, 0xa2, 0x1a, 0x3f,
  0xe8, 0x79, 0xe1, 0x3e, 0x78, 0x16, 0xb3, 0x3e, 0xd0, 0x49, 0xe4, 0x3e,
  0xe5, 0xa5, 0xd1, 0x3e, 0x21, 0x72, 0xd6, 0xbe, 0x6f, 0x5a, 0x24, 0xbf,
  0xfd, 0x80, 0xc6, 0xbf, 0x67, 0x23, 0x84, 0x3f, 0x66, 0xb3, 0x8c, 0xbf,
  0x20, 0x7d, 0x80, 0x3f, 0x46, 0xea, 0x14, 0xbe, 0x97, 0x3e, 0x0b, 0xbf,
  0xef, 0xcb, 0x24, 0x3e, 0x84, 0x3c, 0x0e, 0x3f, 0x8a, 0x85, 0x08, 0xbe,
  0x8c, 0x94, 0xc1, 0xbb, 0x4a, 0x13, 0x97, 0xbe, 0x21, 0xd4, 0x9b, 0xbe,
  0xa9, 0x4b, 0xc8, 0x3d, 0x32, 0x24, 0x34, 0x3e, 0x4e, 0xcb, 0xc1, 0x3e,
  0x90, 0x83, 0x2f, 0xbf, 0xeb, 0x69, 0x9e, 0xbe, 0xc4, 0xed, 0xbd, 0x3e,
  0xe8, 0x0c, 0x9b, 0xbf, 0xb3, 0x46, 0x19, 0x3f, 0xbc, 0xe6, 0xad, 0xbe,
  0x18, 0x12, 0x83, 0x3e, 0xe6, 0xea, 0x88, 0x3e, 0x7a, 0x8d, 0xd6, 0xbe,
  0x1e, 0xe1, 0x5d, 0x3d, 0x18, 0xd6, 0x69, 0x3f, 0x5b, 0xbd, 0xfc, 0xbf,
  0x82, 0xce, 0x4b, 0x3f, 0x44, 0x88, 0x89, 0xbe, 0xad, 0x10, 0x5f, 0x3f,
  0x71, 0x32, 0x3a, 0x3f, 0x03, 0xf8, 0x4b, 0xbf, 0x56, 0x9e, 0xca, 0x3e,
  0x46, 0x10, 0xe5, 0xbe, 0x66, 0xc2, 0x3e, 0x3f, 0xb9, 0xf6, 0x9a, 0xbf,
  0x78, 0xbf, 0x77, 0xbf, 0x1f, 0x41, 0x1c, 0x3f, 0xd2, 0xf2, 0x7a, 0xbf,
  0xc0, 0x24, 0xfe, 0x3e, 0x4f, 0x88, 0x91, 0x3e, 0x13, 0x0e, 0x87, 0xbf,
  0x98, 0x64, 0x2d, 0x3f, 0x71, 0xe8, 0x89, 0x3f, 0x16, 0xc5, 0xca, 0x3f,
  0xb1, 0x33, 0x7a, 0xbf, 0x12, 0xa1, 0x90, 0xbe, 0x1f, 0x5b, 0x36, 0xbf,
  0x60, 0xb9, 0x4b, 0x3f, 0xbf, 0xa9, 0xf1, 0x3f, 0xc0, 0x97, 0x66, 0x3e,
  0xb1, 0xc4, 0x96, 0x3f, 0x40, 0x01, 0xbf, 0xbf, 0xc2, 0xd8, 0x7e, 0xbf,
  0x79, 0xc6, 0xc6, 0xbf, 0xa1, 0x8e, 0x99, 0xbd, 0xe8, 0x76, 0xc6, 0x3d,
  0xdf, 0x2e, 0xe0, 0xbe, 0x81, 0x16, 0x72, 0x40, 0xe8, 0x7a, 0x2a, 0xc0,
  0xa9, 0x5a, 0xa7, 0xbe, 0xbe, 0xdc, 0x98, 0xbf, 0x94, 0x4f, 0xe8, 0xbe,
  0xdb, 0x19, 0x31, 0xc0, 0x73, 0x74, 0xb2, 0xbe, 0x62, 0x97, 0x94, 0x3f,
  0x72, 0xfc, 0x84, 0x3f, 0x15, 0x28, 0x8c, 0xbf, 0x6f, 0x93, 0x2f, 0x3f,
  0x80, 0x58, 0x0a, 0x3f, 0xaf, 0x7b, 0x9b, 0xbf, 0x71, 0x24, 0xb4, 0x3f,
  0xbc, 0x0a, 0x2d, 0x3f, 0x2b, 0x5c, 0x48, 0xbf, 0x3b, 0xc6, 0x62, 0x3f,
  0x61, 0x59, 0xa0, 0x3f, 0x4e, 0x85, 0x69, 0x3f, 0x39, 0x40, 0x12, 0x3f,
  0x25, 0xe2, 0x76, 0xbf, 0xc7, 0x39, 0x28, 0xbf, 0xb1, 0xa7, 0x87, 0xbf,
  0x69, 0xf8, 0x91, 0xbf, 0x53, 0xc0, 0x96, 0xbd, 0x2d, 0x56, 0xb5, 0xbe,
  0x52, 0xb8, 0xd9, 0x3d, 0xa2, 0x58, 0xb8, 0xbe, 0x28, 0x1d, 0x34, 0xbf,
  0x68, 0xab, 0x9a, 0x3d, 0x27, 0x19, 0xab, 0x3f, 0x85, 0x7a, 0xe4, 0x3b,
  0x1f, 0x07, 0xb5, 0xbd, 0xac, 0xd1, 0xc0, 0xbd, 0x22, 0x74, 0x49, 0x3d,
  0x25, 0xda, 0x11, 0xbf, 0x90, 0xd1, 0x2e, 0xbd, 0x1a, 0xde, 0x88, 0xbc,
  0x9c, 0x04, 0xc1, 0x3d, 0x0a, 0x61, 0xee, 0x3e, 0x40, 0x74, 0xbd, 0xbe,
  0xfe, 0x5c, 0x12, 0xbf, 0x68, 0x9a, 0x94, 0x3f, 0x67, 0xcc, 0x0d, 0x3d,
  0x53, 0x28, 0xa4, 0x3a, 0xf7, 0x72, 0x9e, 0xbf, 0x4c, 0x69, 0xed, 0x3e,
  0x6f, 0xa3, 0x54, 0xba, 0x1a, 0xdf, 0xaf, 0xbe, 0xd4, 0xd1, 0x4a, 0xbe,
  0x60, 0x34, 0xa8, 0x3e, 0x2f, 0x09, 0x11, 0x3f, 0x41, 0x1c, 0x17, 0xbe,
  0xe6, 0xbe, 0x9d, 0x3f, 0x41, 0x1d, 0xbc, 0x3c, 0xa6, 0x40, 0x17, 0x3f,
  0xca, 0xa0, 0xc4, 0xbe, 0x5c, 0xef, 0x69, 0xbe, 0x3f, 0x71, 0x88, 0x3f,
  0x1f, 0x27, 0x80, 0x3f, 0xf8, 0x3b, 0x04, 0xbf, 0xe1, 0xcd, 0x04, 0xbf,
  0xdc, 0xd5, 0x94, 0xbe, 0x94, 0x95, 0x47, 0xbf, 0xb2, 0xbc, 0x0d, 0x3d,
  0xd7, 0x71, 0x56, 0xbe, 0xb6, 0xb8, 0xa6, 0x3d, 0x96, 0x9a, 0x5f, 0xbd,
  0x4c, 0xa0, 0x82, 0x3f, 0x34, 0xac, 0xb3, 0x3e, 0x20, 0x2d, 0xf9, 0x3e,
  0xcf, 0xa3, 0xa8, 0x3e, 0xf6, 0xb4, 0x27, 0x3c, 0xd1, 0xea, 0x2b, 0x3f,
  0x80, 0xc4, 0x44, 0xbf, 0x04, 0xfb, 0x0d, 0xbf, 0x00, 0xc0, 0x1a, 0x3d,
  0x5b, 0xb3, 0x44, 0xbf, 0x9b, 0x17, 0x74, 0x3e, 0x11, 0x39, 0x24, 0xbf,
  0x9a, 0x5b, 0xf7, 0x3e, 0x1b, 0xff, 0xba, 0xbd, 0xd5, 0x0a, 0x9b, 0x3e,
  0xc9, 0xf6, 0x34, 0x3f, 0x41, 0x87, 0x4c, 0x3f, 0x82, 0x29, 0xd3, 0x3f,
  0xd1, 0xb0, 0x1b, 0x3d, 0xbd, 0x41, 0x19, 0xbf, 0x57, 0x8d, 0x61, 0xbd,
  0xcf, 0xd0, 0xbc, 0xbe, 0x60, 0x7e, 0xc5, 0x3e, 0x48, 0x88, 0x9c, 0x3f,
  0x0a, 0x1f, 0xac, 0xbf, 0x39, 0x94, 0xa8, 0xbe, 0x56, 0x40, 0x9a, 0xbf,
  0xfe, 0x36, 0x9f, 0xbe, 0x28, 0xf4, 0x82, 0x3f, 0x2a, 0x30, 0x98, 0xbf,
  0x60, 0x24, 0x92, 0x3f, 0x45, 0x11, 0x57, 0x3e, 0xd8, 0x77, 0x9f, 0xbf,
  0x88, 0x7e, 0x32, 0xbf, 0x26, 0xf3, 0xf5, 0xbe, 0xc7, 0x98, 0x60, 0xbf,
  0xcf, 0x48, 0x30, 0xbf, 0x80, 0x32, 0x59, 0xbf, 0xdd, 0x51, 0x30, 0xbf,
  0xdd, 0x04, 0x1b, 0x3e, 0x5f, 0x40, 0x8f, 0x3d, 0x64, 0x3c, 0xa6, 0x3f,
  0x81, 0x27, 0xbc, 0x3e, 0x3e, 0x8d, 0x6e, 0xbe, 0x76, 0x74, 0x8d, 0x3f,
  0xbf, 0x04, 0x03, 0x3f, 0xed, 0x80, 0xa2, 0x3e, 0x82, 0xd1, 0x77, 0xbc,
  0xb5, 0x83, 0x12, 0xbf, 0x0f, 0x37, 0x35, 0x3e, 0xce, 0x1f, 0x9d, 0xbe,
  0x0d, 0x75, 0xed, 0xbf, 0xec, 0xa1, 0x43, 0x3e, 0xf3, 0xea, 0xd8, 0x3c,
  0xdd, 0x7a, 0x9b, 0xbe, 0x51, 0x11, 0x01, 0x3f, 0x41, 0xf3, 0x12, 0xbf,
  0x1d, 0x54, 0x86, 0x3e, 0xbb, 0x28, 0x55, 0x3f, 0x69, 0xbf, 0x5d, 0xbf,
  0x48, 0xf3, 0x0d, 0xbe, 0x85, 0xa7, 0xb5, 0xbd, 0x55, 0xe3, 0x24, 0xbf,
  0xce, 0x54, 0x97, 0x3e, 0x1e, 0x96, 0x31, 0x3f, 0x45, 0xd1, 0x0c, 0x3f,
  0x1b, 0xc8, 0x5e, 0x3f, 0x7c, 0x44, 0xdb, 0xbf, 0xa6, 0x33, 0x59, 0x3f,
  0xf8, 0x9c, 0x4b, 0xbf, 0xf8, 0xc4, 0x53, 0xbe, 0x0c, 0x10, 0x44, 0x3e,
  0x3b, 0xd8, 0xb2, 0x3d, 0xb5, 0x67, 0x51, 0x3f, 0x80, 0xc2, 0x64, 0xbf,
  0x0a, 0xac, 0xfa, 0xbe, 0xdd, 0xa4, 0x30, 0x3f, 0xba, 0xc0, 0xf0, 0x3e,
  0x49, 0x06, 0x17, 0x3e, 0xb8, 0x2b, 0xf8, 0xbf, 0x6d, 0xf4, 0xd3, 0x3e,
  0x64, 0x61, 0x74, 0xbf, 0x2a, 0xd0, 0x75, 0xbe, 0x21, 0x45, 0x5b, 0x3f,
  0x17, 0x63, 0x33, 0x3f, 0x5a, 0xfb, 0xff, 0xff, 0x04, 0x00, 0x00, 0x00,
  0x80, 0x03, 0x00, 0x00, 0xeb, 0xbc, 0xb1, 0xc0, 0xa1, 0x48, 0x8c, 0x3e,
  0x64, 0xfe, 0x37, 0xc0, 0x55, 0xe4, 0x00, 0x3f, 0x84, 0x1e, 0x9e, 0x3f,
  0xca, 0x3b, 0x04, 0xbe, 0x64, 0x47, 0x6b, 0xbe, 0xee, 0x58, 0x86, 0xc0,
  0xbf, 0xe6, 0xf5, 0xbd, 0xb2, 0xc1, 0x97, 0xbe, 0x9f, 0x98, 0x03, 0xbe,
  0xee, 0xea, 0x87, 0xbd, 0x2e, 0x48, 0xd9, 0xbe, 0xc4, 0x48, 0x05, 0xbf,
  0x24, 0x60, 0x9c, 0xbe, 0x34, 0x89, 0xbf, 0x3e, 0x67, 0x67, 0xd7, 0xbf,
  0xc2, 0xde, 0x85, 0xbf, 0x3f, 0x00, 0xa6, 0xbe, 0x63, 0xdc, 0x52, 0xbf,
  0x21, 0x7c, 0xba, 0x3d, 0x92, 0x2c, 0x3f, 0xbf, 0xd5, 0xcb, 0x00, 0x40,
  0x2b, 0xf9, 0xf8, 0x3f, 0xee, 0x45, 0x90, 0xbf, 0x28, 0x36, 0xda, 0x3e,
  0xf4, 0xcd, 0xe7, 0x3f, 0x5e, 0xa2, 0x2c, 0x3e, 0x10, 0x54, 0x2e, 0x3f,
  0x65, 0xa4, 0x64, 0x3e, 0x26, 0x3d, 0x00, 0xbf, 0x2e, 0x65, 0x00, 0x3f,
  0x4c, 0x40, 0xb4, 0x3f, 0x79, 0x4a, 0xa5, 0xbd, 0x5b, 0x24, 0xec, 0xbe,
  0xb5, 0xc2, 0xc1, 0x3f, 0xac, 0x2c, 0x1a, 0x40, 0xf7, 0xbd, 0x09, 0x3f,
  0xfd, 0x4c, 0x1e, 0xbf, 0xf8, 0x6e, 0x65, 0xbf, 0xe8, 0x69, 0x61, 0x3f,
  0xc0, 0x2a, 0x01, 0x3f, 0xfc, 0xc2, 0xba, 0xbf, 0x7a, 0x29, 0x51, 0x3f,
  0xe2, 0x92, 0x22, 0x3f, 0x6e, 0x9a, 0xc7, 0xbf, 0x5b, 0x4c, 0x2e, 0xbf,
  0x68, 0x9c, 0xcb, 0x3f, 0xb9, 0x78, 0x66, 0xbd, 0x80, 0x9b, 0x2f, 0x3d,
  0x72, 0x71, 0x27, 0xbe, 0x8d, 0xef, 0xe5, 0xbe, 0x0a, 0xe6, 0xea, 0xbf,
  0x44, 0x39, 0x53, 0xbe, 0x33, 0x0a, 0xef, 0x3d, 0x4e, 0xf2, 0x83, 0xbe,
  0x97, 0x38, 0xf1, 0x3f, 0x33, 0xa8, 0x3b, 0x3f, 0x8b, 0x75, 0xcd, 0x3c,
  0x17, 0x34, 0x3d, 0xbf, 0xec, 0x45, 0xc3, 0xbd, 0x26, 0xba, 0xcb, 0xbe,
  0x94, 0x26, 0xbf, 0xbe, 0x0e, 0x2f, 0xa0, 0xc0, 0xe7, 0x05, 0xae, 0x3f,
  0xc2, 0xf5, 0xae, 0xbf, 0x17, 0x19, 0x20, 0xbf, 0x0b, 0x56, 0xbd, 0xbd,
  0x4f, 0xa8, 0x18, 0xbe, 0x00, 0x90, 0x99, 0x3d, 0xd5, 0xbb, 0x29, 0xc0,
  0xe3, 0x25, 0x81, 0x3f, 0x52, 0xfb, 0x96, 0x3e, 0x84, 0x4f, 0xb5, 0xbe,
  0x01, 0x63, 0x7d, 0xbf, 0x20, 0xad, 0x5b, 0xbe, 0xd7, 0xdf, 0x8e, 0x3e,
  0x4e, 0x13, 0xd6, 0x3f, 0x9e, 0x2f, 0xc8, 0xbf, 0x8b, 0x21, 0xfa, 0x3e,
  0x93, 0x87, 0xbc, 0xbf, 0x2e, 0x88, 0x8f, 0xbd, 0x6e, 0xa6, 0x82, 0xbe,
  0xbb, 0x4d, 0x92, 0xbe, 0x65, 0x60, 0x16, 0x40, 0xfc, 0x76, 0x84, 0xbf,
  0xba, 0x09, 0x95, 0x3e, 0x7c, 0xc6, 0x05, 0xbf, 0xef, 0x94, 0x8b, 0xbe,
  0x2f, 0x9f, 0x21, 0x3f, 0xf6, 0x16, 0xfc, 0x3e, 0x56, 0xf5, 0x89, 0x40,
  0x7e, 0x88, 0x7a, 0x3f, 0x5e, 0x82, 0x1d, 0x3f, 0x31, 0x25, 0xe2, 0x3c,
  0xba, 0x9d, 0x44, 0xbf, 0x47, 0x3b, 0x88, 0xbf, 0xc2, 0xbe, 0x66, 0xbd,
  0x16, 0x7f, 0x35, 0xc0, 0xdb, 0xc1, 0xea, 0x3e, 0x04, 0x03, 0x51, 0xbf,
  0x20, 0x0d, 0xc1, 0xbd, 0x40, 0xe1, 0x07, 0x3f, 0x1b, 0x77, 0x38, 0xbf,
  0x43, 0x41, 0xa6, 0x3e, 0xac, 0xd1, 0xa7, 0x40, 0x04, 0x8f, 0x69, 0x3d,
  0xbc, 0xb1, 0xab, 0x3f, 0x88, 0x45, 0x18, 0xbe, 0xcb, 0x2e, 0xe6, 0x3c,
  0x90, 0x83, 0xcd, 0x3d, 0x6a, 0x6b, 0x5b, 0xbd, 0xcb, 0xfc, 0x47, 0x40,
  0xf0, 0xbd, 0xce, 0x3f, 0x50, 0x61, 0xd2, 0x3e, 0x81, 0xf1, 0x36, 0xbf,
  0x56, 0xbc, 0xcc, 0xbd, 0x2b, 0xf1, 0x02, 0x3f, 0x1c, 0x29, 0x0f, 0x3f,
  0x2b, 0x4a, 0x95, 0xc0, 0x34, 0x63, 0x9e, 0xbe, 0xd0, 0x90, 0x5c, 0xbf,
  0xde, 0x31, 0x69, 0xbe, 0xa2, 0xf4, 0x7e, 0xbf, 0xc0, 0x52, 0xaf, 0x3f,
  0x5d, 0x54, 0x5e, 0x3e, 0xa4, 0xd2, 0x25, 0x40, 0x0a, 0x22, 0x40, 0xc0,
  0xfc, 0x39, 0x2f, 0x40, 0xa4, 0x05, 0x26, 0xbf, 0x60, 0x54, 0x9c, 0x3e,
  0x74, 0xac, 0x0f, 0xc0, 0x1f, 0xf3, 0xa6, 0x3e, 0xda, 0xf4, 0xf3, 0x3f,
  0xec, 0x58, 0x6e, 0x3f, 0x08, 0x22, 0x40, 0xbd, 0x9f, 0x4e, 0xfd, 0xbf,
  0xf9, 0x39, 0xa6, 0xbe, 0x22, 0xd3, 0x87, 0x3f, 0x4e, 0xa9, 0x56, 0xbc,
  0x33, 0x35, 0x2b, 0xbf, 0x30, 0x5c, 0xf6, 0x3e, 0xa1, 0x1a, 0xab, 0x3f,
  0x2b, 0x08, 0x5d, 0x3f, 0x0e, 0x97, 0xbf, 0x3d, 0x95, 0x7d, 0x25, 0xbf,
  0xea, 0x8a, 0x13, 0xbd, 0x8a, 0x99, 0x80, 0xc0, 0xeb, 0xba, 0x99, 0x3e,
  0x73, 0x14, 0xd3, 0x3c, 0xe1, 0x44, 0xa3, 0x3e, 0xe7, 0x7f, 0xb3, 0x3f,
  0xa0, 0x2e, 0x0a, 0xbf, 0xe7, 0x31, 0x28, 0xbe, 0x23, 0xb6, 0xf4, 0x3f,
  0x3b, 0x30, 0x42, 0x3f, 0x9b, 0x33, 0xd0, 0x3d, 0x34, 0xe8, 0x35, 0x3e,
  0x24, 0xf9, 0xe2, 0x3d, 0x71, 0xc3, 0x90, 0xbf, 0x56, 0x25, 0x39, 0x3e,
  0xe6, 0xad, 0x20, 0x3e, 0xed, 0x58, 0x1b, 0xbf, 0x05, 0xeb, 0x17, 0x3e,
  0x1c, 0x9b, 0x9d, 0xbf, 0x13, 0xa7, 0x74, 0xbe, 0x50, 0x9b, 0xad, 0xbe,
  0xc5, 0xf3, 0x2e, 0x3f, 0x83, 0x21, 0x9a, 0xbe, 0xcb, 0xa3, 0xd9, 0x3f,
  0xa3, 0x7d, 0xf2, 0x3f, 0xa8, 0x12, 0xb3, 0xbd, 0x10, 0x8d, 0x98, 0xbd,
  0x49, 0xcd, 0x55, 0x3f, 0xfc, 0x24, 0xb7, 0x3d, 0x88, 0xbc, 0x87, 0xbf,
  0x65, 0x35, 0x29, 0xbf, 0x05, 0x64, 0x76, 0xbf, 0x68, 0x63, 0x6b, 0xbf,
  0xa9, 0x6c, 0xc3, 0xbe, 0xfc, 0xfe, 0x4f, 0xbe, 0x51, 0x08, 0xdb, 0xbe,
  0x2d, 0xc7, 0xdc, 0xc0, 0x69, 0x4c, 0x98, 0xbf, 0x32, 0x27, 0x25, 0xc0,
  0xa5, 0x3f, 0xf2, 0xbd, 0x41, 0xc2, 0x1c, 0x3f, 0xd2, 0x3f, 0x0d, 0x3e,
  0xbd, 0xd0, 0x97, 0xbd, 0x5d, 0xf1, 0x22, 0x40, 0xdc, 0x94, 0xd8, 0xbe,
  0xdd, 0xe2, 0x88, 0xbf, 0x27, 0xd7, 0x66, 0x3e, 0x9c, 0x0c, 0xc3, 0xbe,
  0xfa, 0xd8, 0xff, 0xbd, 0xa7, 0x28, 0x48, 0x3e, 0xb7, 0xbf, 0x2d, 0x40,
  0x39, 0xe9, 0x9c, 0x3f, 0xad, 0x4f, 0x1a, 0xc0, 0xaf, 0x90, 0x4b, 0x3e,
  0x50, 0x6b, 0xe3, 0x3e, 0x0a, 0x37, 0xec, 0x3e, 0x36, 0x19, 0x50, 0x3e,
  0x38, 0x6e, 0xc8, 0xbf, 0x81, 0x47, 0xbe, 0x3d, 0x2d, 0x30, 0xa8, 0x3e,
  0x9a, 0xd3, 0x29, 0xbf, 0x73, 0x42, 0x97, 0x3f, 0xdf, 0xd2, 0xbf, 0xbd,
  0x7a, 0x05, 0x8a, 0x3e, 0x8c, 0x82, 0xc9, 0xbf, 0x28, 0x5b, 0x2f, 0xbd,
  0xf2, 0xa4, 0x76, 0x3f, 0xf9, 0xbd, 0x9b, 0xbf, 0x3f, 0x0b, 0xfb, 0xbe,
  0xb8, 0xda, 0x6c, 0xbf, 0x0e, 0x85, 0xbd, 0x3e, 0x7f, 0x05, 0x3d, 0xc0,
  0x66, 0x30, 0x29, 0xbe, 0x7b, 0x67, 0xef, 0x3f, 0xf8, 0x90, 0xae, 0xbc,
  0x33, 0x36, 0xef, 0xbe, 0xf0, 0x09, 0x20, 0xbf, 0xe9, 0x6d, 0x76, 0x3e,
  0xe6, 0xfe, 0xff, 0xff, 0x04, 0x00, 0x00, 0x00, 0x80, 0x00, 0x00, 0x00,
  0xe0, 0xd9, 0x8d, 0x3e, 0x33, 0x39, 0xe5, 0x3e, 0x24, 0xf8, 0x98, 0xbe,
  0x51, 0x33, 0x9e, 0x3d, 0x61, 0x85, 0x09, 0x3e, 0x3f, 0xa1, 0x78, 0xbf,
  0xc9, 0x7b, 0x3e, 0xbf, 0xce, 0xbf, 0x2e, 0xbd, 0x18, 0xee, 0xaa, 0x3e,
  0x7d, 0x43, 0x25, 0xbf, 0x88, 0x47, 0x2d, 0xbf, 0xaf, 0x25, 0xc9, 0x3e,
  0xc4, 0x66, 0xaa, 0xbe, 0x9f, 0x5f, 0xa2, 0xbe, 0x95, 0xaa, 0x1a, 0xbe,
  0x26, 0xf7, 0x13, 0x3e, 0xda, 0xdc, 0x88, 0xbf, 0xf2, 0x17, 0xc3, 0xbd,
  0x6c, 0x57, 0x2d, 0x3f, 0x58, 0x69, 0xe7, 0xbe, 0x20, 0x28, 0x08, 0xbf,
  0xf0, 0xbf, 0xa2, 0x3e, 0x17, 0x4e, 0x57, 0x3f, 0xcf, 0x6f, 0x82, 0xbd,
  0x72, 0x77, 0xa2, 0x3e, 0x41, 0x4f, 0x11, 0xbf, 0x5c, 0x9a, 0xf6, 0x3e,
  0x30, 0xd5, 0xa2, 0xbf, 0x44, 0x4d, 0xc0, 0x3f, 0x51, 0x4f, 0xbe, 0x3d,
  0x58, 0x6f, 0x9d, 0x3f, 0x6c, 0x5d, 0x16, 0x3f, 0x72, 0xff, 0xff, 0xff,
  0x04, 0x00, 0x00, 0x00, 0x80, 0x00, 0x00, 0x00, 0x1e, 0x58, 0x88, 0xbe,
  0x8f, 0xba, 0x2b, 0xbb, 0x77, 0x14, 0x2c, 0x3e, 0x6e, 0xa4, 0xec, 0x3d,
  0x6f, 0xe1, 0x3f, 0x3e, 0x1d, 0xfa, 0xa9, 0xbe, 0x5b, 0xc0, 0xd8, 0xbe,
  0x9e, 0xba, 0xfe, 0xbc, 0x3b, 0x1c, 0xba, 0x3f, 0xd8, 0x86, 0x08, 0x3f,
  0x27, 0x86, 0xd9, 0x3e, 0x85, 0x7f, 0xbc, 0xbe, 0xfa, 0x97, 0x93, 0xbe,
  0x9d, 0xb8, 0xe1, 0x3d, 0x15, 0xd7, 0x87, 0xbf, 0x13, 0x6d, 0x5d, 0x3c,
  0x64, 0xfe, 0xee, 0xbd, 0x2d, 0x3c, 0x6a, 0x3d, 0x99, 0xb2, 0x55, 0xbe,
  0x0f, 0x1b, 0xcf, 0x3d, 0xe5, 0x66, 0x46, 0x3e, 0xfe, 0x5f, 0x8f, 0x3e,
  0x8e, 0x85, 0x12, 0x3f, 0xcd, 0x14, 0x71, 0x3f, 0xb7, 0xd8, 0xc3, 0x3c,
  0xa8, 0x4c, 0x03, 0x3e, 0x0e, 0xbd, 0xb5, 0x3e, 0xfb, 0x96, 0xb5, 0x3c,
  0x88, 0x53, 0xc4, 0x3e, 0xfe, 0x1e, 0xcf, 0xbe, 0xf1, 0x3d, 0x87, 0xbf,
  0x05, 0x09, 0x9d, 0x3e, 0x00, 0x00, 0x06, 0x00, 0x08, 0x00, 0x04, 0x00,
  0x06, 0x00, 0x00, 0x00, 0x04, 0x00, 0x00, 0x00, 0x04, 0x00, 0x00, 0x00,
  0x98, 0x1a, 0x48, 0xbd, 0xd0, 0xfa, 0xff, 0xff, 0xd4, 0xfa, 0xff, 0xff,
  0x0f, 0x00, 0x00, 0x00, 0x4d, 0x4c, 0x49, 0x52, 0x20, 0x43, 0x6f, 0x6e,
  0x76, 0x65, 0x72, 0x74, 0x65, 0x64, 0x2e, 0x00, 0x01, 0x00, 0x00, 0x00,
  0x14, 0x00, 0x00, 0x00, 0x00, 0x00, 0x0e, 0x00, 0x18, 0x00, 0x14, 0x00,
  0x10, 0x00, 0x0c, 0x00, 0x08, 0x00, 0x04, 0x00, 0x0e, 0x00, 0x00, 0x00,
  0x14, 0x00, 0x00, 0x00, 0x1c, 0x00, 0x00, 0x00, 0x1c, 0x01, 0x00, 0x00,
  0x20, 0x01, 0x00, 0x00, 0x24, 0x01, 0x00, 0x00, 0x04, 0x00, 0x00, 0x00,
  0x6d, 0x61, 0x69, 0x6e, 0x00, 0x00, 0x00, 0x00, 0x05, 0x00, 0x00, 0x00,
  0xd0, 0x00, 0x00, 0x00, 0x9c, 0x00, 0x00, 0x00, 0x5c, 0x00, 0x00, 0x00,
  0x38, 0x00, 0x00, 0x00, 0x04, 0x00, 0x00, 0x00, 0x52, 0xff, 0xff, 0xff,
  0x10, 0x00, 0x00, 0x00, 0x00, 0x00, 0x00, 0x08, 0x0c, 0x00, 0x00, 0x00,
  0x10, 0x00, 0x00, 0x00, 0x54, 0xfb, 0xff, 0xff, 0x01, 0x00, 0x00, 0x00,
  0x0b, 0x00, 0x00, 0x00, 0x03, 0x00, 0x00, 0x00, 0x0a, 0x00, 0x00, 0x00,
  0x06, 0x00, 0x00, 0x00, 0x01, 0x00, 0x00, 0x00, 0xae, 0xff, 0xff, 0xff,
  0x0c, 0x00, 0x00, 0x00, 0x10, 0x00, 0x00, 0x00, 0x01, 0x00, 0x00, 0x00,
  0x01, 0x00, 0x00, 0x00, 0x0a, 0x00, 0x00, 0x00, 0x01, 0x00, 0x00, 0x00,
  0x09, 0x00, 0x00, 0x00, 0xa2, 0xff, 0xff, 0xff, 0x10, 0x00, 0x00, 0x00,
  0x00, 0x00, 0x00, 0x08, 0x0c, 0x00, 0x00, 0x00, 0x10, 0x00, 0x00, 0x00,
  0xa4, 0xfb, 0xff, 0xff, 0x01, 0x00, 0x00, 0x00, 0x09, 0x00, 0x00, 0x00,
  0x03, 0x00, 0x00, 0x00, 0x08, 0x00, 0x00, 0x00, 0x05, 0x00, 0x00, 0x00,
  0x02, 0x00, 0x00, 0x00, 0x00, 0x00, 0x0a, 0x00, 0x10, 0x00, 0x0c, 0x00,
  0x08, 0x00, 0x04, 0x00, 0x0a, 0x00, 0x00, 0x00, 0x0c, 0x00, 0x00, 0x00,
  0x10, 0x00, 0x00, 0x00, 0x01, 0x00, 0x00, 0x00, 0x01, 0x00, 0x00, 0x00,
  0x08, 0x00, 0x00, 0x00, 0x01, 0x00, 0x00, 0x00, 0x07, 0x00, 0x00, 0x00,
  0x00, 0x00, 0x0e, 0x00, 0x14, 0x00, 0x00, 0x00, 0x10, 0x00, 0x0c, 0x00,
  0x0b, 0x00, 0x04, 0x00, 0x0e, 0x00, 0x00, 0x00, 0x10, 0x00, 0x00, 0x00,
  0x00, 0x00, 0x00, 0x08, 0x0c, 0x00, 0x00, 0x00, 0x10, 0x00, 0x00, 0x00,
  0x10, 0xfc, 0xff, 0xff, 0x01, 0x00, 0x00, 0x00, 0x07, 0x00, 0x00, 0x00,
  0x03, 0x00, 0x00, 0x00, 0x00, 0x00, 0x00, 0x00, 0x04, 0x00, 0x00, 0x00,
  0x03, 0x00, 0x00, 0x00, 0x01, 0x00, 0x00, 0x00, 0x0b, 0x00, 0x00, 0x00,
  0x01, 0x00, 0x00, 0x00, 0x00, 0x00, 0x00, 0x00, 0x0c, 0x00, 0x00, 0x00,
  0x9c, 0x03, 0x00, 0x00, 0x50, 0x03, 0x00, 0x00, 0x08, 0x03, 0x00, 0x00,
  0xd0, 0x02, 0x00, 0x00, 0x88, 0x02, 0x00, 0x00, 0x40, 0x02, 0x00, 0x00,
  0xf8, 0x01, 0x00, 0x00, 0x84, 0x01, 0x00, 0x00, 0x2c, 0x01, 0x00, 0x00,
  0xb8, 0x00, 0x00, 0x00, 0x5c, 0x00, 0x00, 0x00, 0x04, 0x00, 0x00, 0x00,
  0xa8, 0xfc, 0xff, 0xff, 0x14, 0x00, 0x00, 0x00, 0x1c, 0x00, 0x00, 0x00,
  0x1c, 0x00, 0x00, 0x00, 0x0c, 0x00, 0x00, 0x00, 0x34, 0x00, 0x00, 0x00,
  0x02, 0x00, 0x00, 0x00, 0xff, 0xff, 0xff, 0xff, 0x01, 0x00, 0x00, 0x00,
  0x94, 0xfc, 0xff, 0xff, 0x19, 0x00, 0x00, 0x00, 0x53, 0x74, 0x61, 0x74,
  0x65, 0x66, 0x75, 0x6c, 0x50, 0x61, 0x72, 0x74, 0x69, 0x74, 0x69, 0x6f,
  0x6e, 0x65, 0x64, 0x43, 0x61, 0x6c, 0x6c, 0x3a, 0x30, 0x00, 0x00, 0x00,
  0x02, 0x00, 0x00, 0x00, 0x01, 0x00, 0x00, 0x00, 0x01, 0x00, 0x00, 0x00,
  0xfc, 0xfc, 0xff, 0xff, 0x14, 0x00, 0x00, 0x00, 0x1c, 0x00, 0x00, 0x00,
  0x1c, 0x00, 0x00, 0x00, 0x0b, 0x00, 0x00, 0x00, 0x38, 0x00, 0x00, 0x00,
  0x02, 0x00, 0x00, 0x00, 0xff, 0xff, 0xff, 0xff, 0x20, 0x00, 0x00, 0x00,
  0xe8, 0xfc, 0xff, 0xff, 0x1c, 0x00, 0x00, 0x00, 0x73, 0x65, 0x71, 0x75,
  0x65, 0x6e, 0x74, 0x69, 0x61, 0x6c, 0x2f, 0x61, 0x63, 0x74, 0x69, 0x76,
  0x61, 0x74, 0x69, 0x6f, 0x6e, 0x5f, 0x31, 0x2f, 0x54, 0x61, 0x6e, 0x68,
  0x00, 0x00, 0x00, 0x00, 0x02, 0x00, 0x00, 0x00, 0x01, 0x00, 0x00, 0x00,
  0x20, 0x00, 0x00, 0x00, 0x54, 0xfd, 0xff, 0xff, 0x14, 0x00, 0x00, 0x00,
  0x1c, 0x00, 0x00, 0x00, 0x1c, 0x00, 0x00, 0x00, 0x0a, 0x00, 0x00, 0x00,
  0x50, 0x00, 0x00, 0x00, 0x02, 0x00, 0x00, 0x00, 0xff, 0xff, 0xff, 0xff,
  0x20, 0x00, 0x00, 0x00, 0x40, 0xfd, 0xff, 0xff, 0x36, 0x00, 0x00, 0x00,
  0x73, 0x65, 0x71, 0x75, 0x65, 0x6e, 0x74, 0x69, 0x61, 0x6c, 0x2f, 0x6c,
  0x61, 0x79, 0x65, 0x72, 0x73, 0x5f, 0x31, 0x2f, 0x4d, 0x61, 0x74, 0x4d,
  0x75, 0x6c, 0x3b, 0x73, 0x65, 0x71, 0x75, 0x65, 0x6e, 0x74, 0x69, 0x61,
  0x6c, 0x2f, 0x6c, 0x61, 0x79, 0x65, 0x72, 0x73, 0x5f, 0x31, 0x2f, 0x42,
  0x69, 0x61, 0x73, 0x41, 0x64, 0x64, 0x00, 0x00, 0x02, 0x00, 0x00, 0x00,
  0x01, 0x00, 0x00, 0x00, 0x20, 0x00, 0x00, 0x00, 0xc4, 0xfd, 0xff, 0xff,
  0x14, 0x00, 0x00, 0x00, 0x1c, 0x00, 0x00, 0x00, 0x1c, 0x00, 0x00, 0x00,
  0x09, 0x00, 0x00, 0x00, 0x34, 0x00, 0x00, 0x00, 0x02, 0x00, 0x00, 0x00,
  0xff, 0xff, 0xff, 0xff, 0x20, 0x00, 0x00, 0x00, 0xb0, 0xfd, 0xff, 0xff,
  0x1a, 0x00, 0x00, 0x00, 0x73, 0x65, 0x71, 0x75, 0x65, 0x6e, 0x74, 0x69,
  0x61, 0x6c, 0x2f, 0x61, 0x63, 0x74, 0x69, 0x76, 0x61, 0x74, 0x69, 0x6f,
  0x6e, 0x2f, 0x54, 0x61, 0x6e, 0x68, 0x00, 0x00, 0x02, 0x00, 0x00, 0x00,
  0x01, 0x00, 0x00, 0x00, 0x20, 0x00, 0x00, 0x00, 0x18, 0xfe, 0xff, 0xff,
  0x14, 0x00, 0x00, 0x00, 0x1c, 0x00, 0x00, 0x00, 0x1c, 0x00, 0x00, 0x00,
  0x08, 0x00, 0x00, 0x00, 0x50, 0x00, 0x00, 0x00, 0x02, 0x00, 0x00, 0x00,
  0xff, 0xff, 0xff, 0xff, 0x20, 0x00, 0x00, 0x00, 0x04, 0xfe, 0xff, 0xff,
  0x36, 0x00, 0x00, 0x00, 0x73, 0x65, 0x71, 0x75, 0x65, 0x6e, 0x74, 0x69,
  0x61, 0x6c, 0x2f, 0x6c, 0x61, 0x79, 0x65, 0x72, 0x73, 0x5f, 0x30, 0x2f,
  0x4d, 0x61, 0x74, 0x4d, 0x75, 0x6c, 0x3b, 0x73, 0x65, 0x71, 0x75, 0x65,
  0x6e, 0x74, 0x69, 0x61, 0x6c, 0x2f, 0x6c, 0x61, 0x79, 0x65, 0x72, 0x73,
  0x5f, 0x30, 0x2f, 0x42, 0x69, 0x61, 0x73, 0x41, 0x64, 0x64, 0x00, 0x00,
  0x02, 0x00, 0x00, 0x00, 0x01, 0x00, 0x00, 0x00, 0x20, 0x00, 0x00, 0x00,
  0xca, 0xfe, 0xff, 0xff, 0x10, 0x00, 0x00, 0x00, 0x10, 0x00, 0x00, 0x00,
  0x07, 0x00, 0x00, 0x00, 0x28, 0x00, 0x00, 0x00, 0x64, 0xfe, 0xff, 0xff,
  0x1a, 0x00, 0x00, 0x00, 0x73, 0x65, 0x71, 0x75, 0x65, 0x6e, 0x74, 0x69,
  0x61, 0x6c, 0x2f, 0x6c, 0x61, 0x79, 0x65, 0x72, 0x73, 0x5f, 0x32, 0x2f,
  0x4d, 0x61, 0x74, 0x4d, 0x75, 0x6c, 0x00, 0x00, 0x02, 0x00, 0x00, 0x00,
  0x01, 0x00, 0x00, 0x00, 0x20, 0x00, 0x00, 0x00, 0x0e, 0xff, 0xff, 0xff,
  0x10, 0x00, 0x00, 0x00, 0x10, 0x00, 0x00, 0x00, 0x06, 0x00, 0x00, 0x00,
  0x28, 0x00, 0x00, 0x00, 0xa8, 0xfe, 0xff, 0xff, 0x1a, 0x00, 0x00, 0x00,
  0x73, 0x65, 0x71, 0x75, 0x65, 0x6e, 0x74, 0x69, 0x61, 0x6c, 0x2f, 0x6c,
  0x61, 0x79, 0x65, 0x72, 0x73, 0x5f, 0x31, 0x2f, 0x4d, 0x61, 0x74, 0x4d,
  0x75, 0x6c, 0x00, 0x00, 0x02, 0x00, 0x00, 0x00, 0x20, 0x00, 0x00, 0x00,
  0x20, 0x00, 0x00, 0x00, 0x52, 0xff, 0xff, 0xff, 0x10, 0x00, 0x00, 0x00,
  0x10, 0x00, 0x00, 0x00, 0x05, 0x00, 0x00, 0x00, 0x28, 0x00, 0x00, 0x00,
  0xec, 0xfe, 0xff, 0xff, 0x1a, 0x00, 0x00, 0x00, 0x73, 0x65, 0x71, 0x75,
  0x65, 0x6e, 0x74, 0x69, 0x61, 0x6c, 0x2f, 0x6c, 0x61, 0x79, 0x65, 0x72,
  0x73, 0x5f, 0x30, 0x2f, 0x4d, 0x61, 0x74, 0x4d, 0x75, 0x6c, 0x00, 0x00,
  0x02, 0x00, 0x00, 0x00, 0x20, 0x00, 0x00, 0x00, 0x07, 0x00, 0x00, 0x00,
  0x96, 0xff, 0xff, 0xff, 0x10, 0x00, 0x00, 0x00, 0x10, 0x00, 0x00, 0x00,
  0x04, 0x00, 0x00, 0x00, 0x1c, 0x00, 0x00, 0x00, 0x30, 0xff, 0xff, 0xff,
  0x0d, 0x00, 0x00, 0x00, 0x6c, 0x61, 0x79, 0x65, 0x72, 0x73, 0x5f, 0x30,
  0x2f, 0x62, 0x69, 0x61, 0x73, 0x00, 0x00, 0x00, 0x01, 0x00, 0x00, 0x00,
  0x20, 0x00, 0x00, 0x00, 0xca, 0xff, 0xff, 0xff, 0x10, 0x00, 0x00, 0x00,
  0x10, 0x00, 0x00, 0x00, 0x03, 0x00, 0x00, 0x00, 0x1c, 0x00, 0x00, 0x00,
  0x64, 0xff, 0xff, 0xff, 0x0d, 0x00, 0x00, 0x00, 0x6c, 0x61, 0x79, 0x65,
  0x72, 0x73, 0x5f, 0x31, 0x2f, 0x62, 0x69, 0x61, 0x73, 0x00, 0x00, 0x00,
  0x01, 0x00, 0x00, 0x00, 0x20, 0x00, 0x00, 0x00, 0x00, 0x00, 0x0e, 0x00,
  0x14, 0x00, 0x10, 0x00, 0x00, 0x00, 0x0c, 0x00, 0x08, 0x00, 0x04, 0x00,
  0x0e, 0x00, 0x00, 0x00, 0x10, 0x00, 0x00, 0x00, 0x10, 0x00, 0x00, 0x00,
  0x02, 0x00, 0x00, 0x00, 0x1c, 0x00, 0x00, 0x00, 0xa8, 0xff, 0xff, 0xff,
  0x0d, 0x00, 0x00, 0x00, 0x6c, 0x61, 0x79, 0x65, 0x72, 0x73, 0x5f, 0x32,
  0x2f, 0x62, 0x69, 0x61, 0x73, 0x00, 0x00, 0x00, 0x01, 0x00, 0x00, 0x00,
  0x01, 0x00, 0x00, 0x00, 0x14, 0x00, 0x18, 0x00, 0x14, 0x00, 0x00, 0x00,
  0x10, 0x00, 0x0c, 0x00, 0x08, 0x00, 0x00, 0x00, 0x00, 0x00, 0x04, 0x00,
  0x14, 0x00, 0x00, 0x00, 0x14, 0x00, 0x00, 0x00, 0x20, 0x00, 0x00, 0x00,
  0x20, 0x00, 0x00, 0x00, 0x01, 0x00, 0x00, 0x00, 0x38, 0x00, 0x00, 0x00,
  0x02, 0x00, 0x00, 0x00, 0xff, 0xff, 0xff, 0xff, 0x07, 0x00, 0x00, 0x00,
  0x04, 0x00, 0x04, 0x00, 0x04, 0x00, 0x00, 0x00, 0x19, 0x00, 0x00, 0x00,
  0x73, 0x65, 0x72, 0x76, 0x69, 0x6e, 0x67, 0x5f, 0x64, 0x65, 0x66, 0x61,
  0x75, 0x6c, 0x74, 0x5f, 0x69, 0x6e, 0x70, 0x75, 0x74, 0x5f, 0x31, 0x3a,
  0x30, 0x00, 0x00, 0x00, 0x02, 0x00, 0x00, 0x00, 0x01, 0x00, 0x00, 0x00,
  0x07, 0x00, 0x00, 0x00, 0x02, 0x00, 0x00, 0x00, 0x20, 0x00, 0x00, 0x00,
  0x04, 0x00, 0x00, 0x00, 0xf4, 0xff, 0xff, 0xff, 0x1c, 0x00, 0x00, 0x00,
  0x00, 0x00, 0x00, 0x1c, 0x0c, 0x00, 0x0c, 0x00, 0x0b, 0x00, 0x00, 0x00,
  0x00, 0x00, 0x04, 0x00, 0x0c, 0x00, 0x00, 0x00, 0x09, 0x00, 0x00, 0x00,
  0x00, 0x00, 0x00, 0x09
};
